-- begin_signature
-- demo_kernel_loader
-- end_signature
WIDTH=24;
DEPTH=9;

ADDRESS_RADIX=UNS;
DATA_RADIX=BIN;

CONTENT BEGIN
	8 :	000000000000000000000000;
	7 :	000000000000000011111111;
	6 :	000000000000000000000000;
	5 :	000000000000000011111111;
	4 :	000000000000000000000100;
	3 :	000000000000000011111111;
	2 :	000000000000000000000000;
	1 :	000000000000000011111111;
	0 :	000000000000000000000000;
END;
